00000048
00000155
00000129
000000fc
ffffff61
fffffedb
ffffff7d
ffffff39
ffffff13
ffffff6e
ffffff26
00000000
0000013e
00000095
00000124
ffffff06
ffffffe1
0000014a
ffffff59
ffffffe4
fffffeef
000000d8
0000005a
ffffff14
ffffff26
fffffefc
000000e3
ffffff96
00000042
000000e2
00000035
fffffff2
00000163
fffffedb
ffffff99
00000086
ffffffbc
00000119
ffffffe5
ffffffd5
000000c1
fffffed5
ffffff23
ffffff8a
fffffee5
fffffeee
0000012c
fffffea4
0000011b
ffffff4d
000000b9
ffffff78
000000a6
ffffff46
0000004b
ffffff2b
ffffff42
fffffeb8
ffffff5d
ffffffad
ffffffcc
ffffff5b
fffffeff
ffffffba
0000009a
00000097
fffffec9
ffffff55
0000000e
ffffff50
00000109
00000071
00000030
00000082
000000be
000000ce
00000127
0000006f
ffffff76
fffffed3
ffffff91
ffffffe2
00000098
0000006e
ffffffc2
000000b5
0000006f
ffffff77
00000110
0000014b
fffffed0
ffffff50
000000cd
ffffff5b
fffffed0
ffffff77
0000015c
ffffff2a
00000039
ffffff89
00000052
ffffff80
000000ef
00000036
ffffffce
0000013c
00000058
0000002f
00000126
00000140
ffffff08
fffffea6
ffffff7e
0000009b
ffffff59
fffffecf
ffffff2d
ffffff2b
00000138
0000003c
00000128
fffffeec
0000002e
fffffedb
00000039
ffffff3f
00000050
000000b8
ffffff8b
ffffffe8
ffffff50
ffffff3d
ffffffc0
00000114
0000008d
ffffff97
ffffff5e
000000fa
000000b2
ffffff0f
0000010d
ffffffb7
fffffed5
00000126
0000002d
000000d0
0000004f
ffffffdc
000000b1
ffffff53
ffffffc3
000000cc
0000012b
00000009
00000049
00000152
000000a0
fffffeb5
ffffffe4
0000012e
fffffef0
fffffec2
ffffff4b
ffffff1b
fffffff2
0000009e
fffffeec
0000009d
000000f6
000000b2
00000060
00000132
ffffff75
000000ff
00000034
ffffffac
fffffec4
ffffffd9
00000078
fffffeac
ffffff2b
00000057
000000e4
000000ba
ffffffb8
ffffff5d
000000f9
fffffebe
ffffff85
00000083
00000040
ffffff1c
00000119
ffffff75
ffffff0a
fffffeee
0000009e
0000011e
fffffea1
ffffff47
fffffeb7
fffffefa
0000014a
000000ae
000000f5
00000074
000000bc
ffffffbe
ffffffc2
000000b8
00000054
00000058
00000050
0000003a
000000f1
ffffffa7
0000003c
000000fc
ffffff87
0000010b
ffffff22
000000e8
fffffefc
ffffffcb
fffffec5
0000012a
ffffff28
0000014f
000000c2
fffffec6
00000104
00000088
00000053
00000151
0000011d
ffffffbd
ffffffef
fffffea8
fffffeae
00000097
fffffec3
ffffff4f
000000ea
00000138
0000003e
00000008
fffffee6
00000085
ffffff26
000000c0
fffffed6
ffffff03
00000018
ffffff39
fffffecd
fffffec3
00000053
ffffffc4
fffffee7
ffffff6a
fffffef7
ffffffb4
000000d3
ffffffca
ffffff80
0000002e
ffffffb5
0000013a
ffffffcd
00000078
00000119
00000075
000000d1
ffffff30
000000ab
000000a8
00000117
ffffff05
00000027
000000bb
00000068
00000139
00000064
ffffff40
000000a4
ffffff18
fffffea5
ffffffe5
000000bd
00000160
fffffede
ffffff24
00000074
fffffffa
ffffffe7
00000086
ffffff6c
00000061
ffffff96
ffffffc5
000000e8
fffffec3
00000071
00000092
fffffed2
ffffff74
00000086
00000027
00000043
ffffff77
000000c8
00000095
ffffff20
ffffffed
0000007a
0000015d
000000ab
00000014
ffffffab
ffffff58
00000053
0000012e
00000139
ffffff6e
fffffff5
ffffff9f
000000e9
fffffe9e
ffffff64
ffffff43
000000c7
00000081
000000d9
00000119
ffffff4b
fffffff4
00000047
00000111
00000154
00000013
ffffffa3
0000001f
00000053
0000014b
00000026
ffffffbd
000000a8
00000139
ffffff27
fffffee5
00000158
ffffff4c
ffffff53
ffffff4e
ffffffe2
ffffff91
ffffff3a
00000111
0000008c
ffffffb8
0000002c
ffffffe9
00000090
ffffffe8
ffffff74
00000122
0000004d
00000132
ffffff7b
fffffff7
00000107
000000ae
000000a5
00000054
ffffffdb
00000150
000001d3
000000d7
ffffffb7
fffffedb
00000007
000000f4
00000030
ffffff72
0000009e
00000072
000000d9
0000002d
000000c5
ffffff62
0000002f
ffffff43
ffffffcd
000000d2
00000068
ffffffec
00000078
ffffffe0
ffffff06
fffffefd
000000d5
000000ec
00000022
fffffff5
ffffff9d
fffffea8
000001e2
000000a3
ffffff94
ffffffa0
000000b7
00000090
00000005
fffffeff
ffffffdb
ffffffcb
000000da
0000007b
000000ed
0000001b
fffffff0
0000005c
ffffffb5
ffffff0b
ffffff91
000000c8
ffffffac
ffffff9f
00000003
fffffeea
ffffff93
ffffff82
ffffffb1
0000002d
fffffed0
ffffffb0
ffffff00
ffffff9e
ffffff63
fffffec9
ffffffaf
ffffffe8
0000013d
ffffffaf
ffffffdd
0000000a
0000007a
00000028
fffffecc
00000062
ffffffdc
fffffee1
ffffff85
0000005a
fffffef1
000000b9
ffffffa9
ffffffbb
ffffff7f
000000e1
00000154
000000f6
00000092
00000029
000000b0
fffffef1
ffffff9b
ffffff29
000000dc
fffffee6
00000102
00000023
00000058
ffffff86
fffffe79
0000001d
000001d6
fffffef4
0000009d
fffffef7
00000133
00000157
000000ae
000000ab
00000042
fffffef9
ffffff1c
fffffecd
fffffee1
0000001f
000000ef
ffffff6b
ffffffae
000000c7
ffffff5d
ffffff71
ffffff94
fffffff4
0000013f
000000b3
fffffec1
ffffff53
00000160
ffffffee
fffffe9d
0000012b
00000063
ffffffb1
fffffec9
ffffff78
ffffff91
00000031
000000b4
00000061
000000b6
ffffff84
00000024
ffffffc8
fffffeb5
ffffffce
ffffff71
0000005a
ffffffba
ffffff49
0000013b
fffffed6
00000078
000000f3
00000142
000000cc
00000029
0000000b
ffffff95
fffffebe
000000e0
fffffeff
ffffffd8
00000016
00000133
fffffff2
0000006c
0000006d
00000070
ffffff7c
000000c4
ffffff80
ffffffd7
fffffedb
ffffff83
ffffff98
0000004c
00000147
00000051
000000a5
0000005f
ffffff19
000000c0
ffffff2f
fffffed7
000000dd
ffffff99
ffffff3a
ffffff43
ffffff33
00000134
00000130
ffffff8c
000000ca
fffffeb8
fffffff9
0000010b
00000012
ffffffa7
ffffffc8
00000033
00000055
ffffff5f
0000009c
00000066
0000015a
00000152
00000091
00000000
fffffed1
ffffff93
00000029
ffffff95
000000f4
000000aa
ffffff0b
fffffef9
00000162
ffffffec
000000b8
ffffff69
00000085
000000b5
0000006a
0000015c
000000b0
0000011b
fffffec7
fffffef1
0000001f
fffffe9f
000000f4
0000000e
fffffed6
0000008d
ffffff26
ffffff9b
0000007f
fffffffc
00000066
fffffed2
ffffff75
00000147
0000010a
ffffff4c
0000006e
fffffea0
0000007c
fffffee2
000000f0
000000e6
00000061
00000158
00000099
000000e9
00000040
00000100
00000036
000001a5
fffffe9c
fffffe27
fffffef0
000000bc
0000010b
ffffff6b
0000002f
ffffff4f
fffffed5
00000059
ffffff4b
ffffffe4
000000c6
00000165
0000004e
000000d9
00000067
0000001b
ffffff1e
ffffffa5
000000d3
fffffd7b
ffffff0c
ffffffd9
ffffff67
ffffff48
00000078
fffffe1c
000000da
00000165
ffffff15
fffffdc8
ffffff78
0000010d
ffffffb1
fffffe7f
0000006c
fffffeec
000000ad
ffffff66
ffffffb8
fffffda2
ffffff2a
000000ea
00000070
ffffff42
fffffe64
ffffffce
ffffff42
00000088
00000098
fffffe42
ffffff6c
ffffffcb
fffffed0
fffffeff
000000d7
ffffff8d
00000009
0000005f
ffffffb0
ffffffbf
fffffdb2
00000052
00000049
fffffe8a
fffffeb9
fffffdbb
0000015b
ffffff06
fffffff9
ffffff69
fffffffb
ffffff67
ffffffb8
fffffee7
ffffff60
fffffe76
00000121
0000016c
ffffff4c
ffffff4b
00000016
000000de
00000058
fffffe78
000000b3
00000070
000001d7
ffffffea
00000000
ffffffc2
0000002f
ffffffad
ffffffac
ffffff1f
ffffff77
fffffe91
ffffffd4
000000d2
0000001f
ffffffb0
000000c6
000000a1
fffffe53
ffffffd9
00000039
ffffffe3
00000048
fffffe9f
ffffffd1
fffffeb8
000000d0
ffffff71
ffffffb1
fffffea6
00000047
fffffeff
0000012d
fffffff4
ffffffdd
fffffdf6
ffffff81
00000090
ffffff73
00000010
ffffffec
00000039
00000005
fffffeb7
ffffff16
fffffff9
000000c3
0000014c
00000094
ffffffbb
ffffff78
00000096
fffffef7
000000e9
00000070
fffffe83
fffffe4e
00000154
fffffec1
00000069
ffffff89
000000cb
00000029
00000080
0000011b
ffffffe4
0000005a
00000078
000000bc
0000005d
ffffff45
fffffe73
fffffec2
fffffea4
000000be
fffffdf1
fffffed2
00000016
000000ab
00000026
0000013d
ffffffad
ffffff72
ffffff7d
fffffec0
ffffffa5
ffffffa4
ffffff46
ffffff03
fffffff2
fffffead
000000d0
ffffff78
00000132
ffffff96
00000005
000000e2
ffffffd6
ffffffce
fffffef9
00000058
00000125
fffffefc
ffffff2b
fffffffd
fffffec3
000000ce
ffffff94
000000e3
ffffffb0
00000051
000000fe
fffffeb3
ffffff59
ffffffc5
0000013e
00000122
fffffedc
ffffff07
fffffeef
000000ae
ffffff61
ffffff99
00000098
0000001c
00000135
ffffff13
fffffeaf
ffffffe1
000000bf
000000e0
ffffff32
ffffff91
00000024
000000d5
ffffffbd
000000f1
00000111
000000b7
00000084
0000002b
ffffffe7
000000e1
0000009a
fffffffd
fffffee0
ffffffdc
ffffff46
000000c2
00000018
ffffffe9
00000005
000000db
ffffff72
000000e7
fffffe65
0000017a
ffffff76
00000114
00000129
ffffff05
ffffff44
000000c4
000000c0
fffffe6e
0000004e
0000002a
ffffff87
ffffff9d
fffffed7
ffffff06
00000046
ffffff1f
000000a4
00000150
ffffff91
000000d5
00000175
ffffffe0
000000dd
00000013
00000014
fffffed6
000000ec
000000ef
fffffe75
fffffedd
000000c1
ffffff19
0000001f
000000c7
fffffead
000000b9
000000b8
0000003c
ffffffd3
00000060
000000a1
ffffff9c
00000022
00000006
fffffec1
ffffff0a
ffffffca
0000002b
fffffd29
ffffffc8
000000db
fffffe47
ffffff0f
fffffec3
0000009c
00000035
000000d6
00000227
fffffecc
ffffffc9
000000e1
ffffffbc
00000015
ffffffb7
0000005c
fffffe94
000000a6
ffffff32
fffffdd3
0000001e
000000af
00000019
ffffff37
ffffff8c
ffffff1f
fffffe94
0000004b
0000009b
fffffffe
00000084
000000b5
fffffd88
ffffff6d
fffffff1
0000005d
fffffff7
000000aa
00000134
fffffe57
0000006f
000000da
ffffffc3
00000074
ffffff9f
ffffffc4
00000063
00000108
00000052
fffffd7f
0000002b
00000003
ffffff48
00000043
fffffd7c
0000004a
ffffff8e
fffffffe
00000100
fffffeaa
000000cc
000000a2
ffffff8c
ffffffb4
fffffd81
0000002b
ffffffe3
0000007b
00000092
ffffff4f
ffffffcf
000000a4
ffffffa1
ffffffff
fffffe7c
ffffff3d
00000046
00000049
00000073
ffffff9b
000000d4
00000027
ffffffe5
0000003d
fffffe80
ffffff85
00000011
fffffff4
0000008d
fffffec8
ffffffd2
ffffff69
ffffff22
ffffff93
fffffe62
ffffffec
fffffef6
ffffffa4
00000023
0000000a
000000ba
0000008e
ffffff50
0000007d
0000008c
ffffffa1
fffffff2
0000002a
000000ac
ffffff9f
00000018
00000037
0000008e
0000007e
fffffecb
ffffffa2
0000005e
0000002d
000000bd
ffffffb2
00000089
0000000b
ffffff57
ffffff4d
ffffff58
00000060
ffffffc2
ffffffa8
0000006d
00000042
0000016a
0000005d
000000ac
00000082
ffffff13
00000032
ffffffdd
00000173
00000093
000000bf
0000002c
0000007b
fffffeb3
000000e8
0000003b
00000024
ffffffb5
ffffffd9
fffffdfe
ffffff65
0000006b
000000b9
00000092
ffffff34
000000a7
fffffe54
fffffe9e
ffffff12
00000087
0000007e
00000096
0000009a
00000040
ffffffd7
fffffec4
0000009a
ffffff22
00000100
fffffedc
fffffffc
0000002f
0000008f
ffffffb5
ffffffcd
00000052
0000004f
fffffe76
fffffef4
00000059
00000001
ffffff2f
ffffff9e
00000058
fffffeae
ffffff72
000000c9
ffffff9c
ffffffa0
00000150
fffffef9
fffffeff
ffffff54
fffffead
ffffff1d
ffffffc3
00000050
ffffff78
ffffffea
0000000a
ffffff77
00000071
fffffea0
000000cf
00000156
00000027
fffffedf
0000015b
000000ff
fffffff2
ffffff54
fffffee1
0000008e
000000de
00000034
ffffffe8
000000bc
000000d0
000000cf
000000a2
fffffea7
0000004f
ffffffde
00000041
00000103
0000000a
000000f6
00000177
ffffff3c
fffffedd
ffffffe7
ffffffbb
ffffffd8
0000000f
fffffeae
00000043
ffffff87
ffffffd6
ffffffb4
00000154
ffffffe6
ffffffd2
00000199
ffffff13
0000002f
00000048
fffffef1
000000e6
ffffffa3
000000a2
00000004
00000049
00000071
00000102
ffffffd7
ffffffe1
ffffff92
fffffe6c
0000008f
00000084
0000004b
ffffff62
00000133
ffffffb0
fffffdfd
ffffff55
000000c6
0000004e
00000055
0000007d
0000011b
000000f5
ffffffa4
fffffdf0
00000066
fffffe92
000000d4
00000105
0000002c
000000b0
fffffff6
ffffff79
fffffec1
ffffff5c
00000052
0000001c
ffffffcb
00000030
00000129
0000005f
000000a7
00000027
000000af
fffffd22
00000083
ffffff62
00000012
00000131
0000004f
000000bb
ffffffdc
0000007d
ffffff9b
fffffe03
0000003a
ffffff55
000000ef
00000086
00000016
0000007e
fffffe96
000000ca
ffffffd6
ffffff10
00000091
ffffff94
0000001c
0000007d
00000112
0000001a
000000ef
00000042
ffffffa7
ffffff9b
0000007c
ffffff7c
000000cf
00000072
0000003b
000000c3
fffffff3
00000001
00000091
00000046
00000043
00000071
ffffff85
00000017
000000a1
0000004d
fffffff2
ffffffe6
ffffff5d
fffffe41
0000001c
ffffffeb
00000091
00000045
ffffffe0
00000016
ffffff5f
0000008c
ffffffc2
fffffe3d
00000044
ffffff68
00000045
00000032
00000044
00000064
0000006d
00000049
ffffffd5
ffffffd3
00000064
ffffffd5
00000093
00000097
000000ab
0000009a
0000006f
0000008e
000000aa
fffffe62
00000067
0000000e
00000044
00000028
0000003d
00000034
0000002d
000000a3
ffffffa9
00000006
0000009c
ffffff7d
000000f6
0000006b
00000059
00000088
00000042
0000007b
00000076
ffffff87
00000001
ffffff01
0000002a
000000f9
0000008b
00000019
00000219
ffffffee
00000055
ffffffa6
000000f5
00000083
ffffffd8
00000027
ffffff22
ffffff1a
00000075
00000034
00000050
ffffffd1
ffffff5b
fffffe88
0000000e
fffffffd
ffffffac
0000004d
0000014e
000000b8
ffffffb7
ffffffeb
00000051
fffffe93
00000173
ffffff70
fffffe35
ffffff57
0000009f
00000053
0000010f
fffffe68
ffffffc8
fffffef5
ffffff00
ffffff65
0000006e
00000081
00000019
00000185
fffffe9b
0000009f
00000070
fffffedc
ffffff81
fffffe1d
000000ac
ffffff11
00000154
00000191
0000000f
000000dc
00000148
000000dd
ffffff8e
ffffff86
fffffeba
ffffff15
0000004e
ffffffa6
ffffffae
00000150
00000019
00000102
fffffffa
ffffffb3
ffffff5d
00000120
00000116
ffffffea
00000110
000000c5
ffffffe6
000000d2
0000015a
00000018
ffffff14
00000112
00000028
ffffff77
00000073
00000057
ffffff16
000000c8
fffffed5
fffffeee
ffffffbf
ffffff9d
fffffeab
fffffeeb
fffffed2
00000124
fffffee3
0000007a
ffffff11
ffffff6d
00000153
000000f7
00000105
fffffe8f
000000a4
00000133
0000002c
ffffff75
000000e9
ffffff2e
000001b9
000001a9
000000db
0000011e
fffffed0
ffffffab
ffffff8d
ffffffc9
fffffe92
000000ac
ffffff6b
00000014
000000ae
fffffe7d
00000056
fffffeba
00000018
0000002d
ffffffcd
00000121
000000c5
000000e2
00000079
ffffff84
fffffead
ffffffd5
fffffe20
00000087
ffffffcd
00000022
0000012f
000000ca
0000019a
00000085
00000031
ffffff2b
000000e7
fffffe8d
00000012
000000c0
00000040
0000004d
fffffea9
ffffffd8
00000151
00000134
fffffff8
0000005f
000000e1
ffffff15
000000b5
000000eb
00000045
00000104
000000ed
00000033
0000005c
ffffff6e
ffffffba
00000019
ffffff6c
ffffff82
00000110
ffffff74
ffffff78
000000ea
ffffffd5
ffffffe5
00000125
ffffff12
000000c7
000000f6
ffffff89
0000007a
00000097
00000029
00000044
0000000e
00000048
0000000c
000000cd
0000005d
00000086
00000113
00000012
ffffffce
000000b7
00000139
0000002e
ffffffa0
0000006b
00000075
00000068
ffffffe4
0000002f
0000011a
00000055
0000004e
000000d6
00000147
000000a4
00000075
00000053
0000007c
fffffffa
000000ce
00000079
000000e4
000000ae
0000004c
000000f5
000000fb
000000f9
00000112
00000172
0000002d
00000127
00000033
00000065
0000002d
00000065
0000007a
000000d7
ffffffff
fffffffe
000000f2
00000021
000000f0
00000089
000000af
0000012a
000000c0
00000005
000000c9
0000006f
00000060
000000f9
ffffffc8
000000df
ffffffb6
0000002c
0000008f
0000011e
00000090
00000049
000000c2
00000063
000000a6
00000090
00000071
00000102
00000061
00000062
000000ce
000000a5
ffffff7d
0000005f
ffffffce
00000095
00000050
ffffffd3
00000080
00000105
fffffff9
0000009d
0000001f
000000a0
000000b7
0000002e
00000084
000000e8
00000081
00000040
0000013e
000000dd
ffffff0f
000000df
0000002a
0000002f
0000004d
00000053
fffffff0
00000089
fffffffc
00000041
fffffecb
00000055
0000003a
00000065
0000007c
00000092
000000bd
fffffff9
000000ef
0000001e
ffffff50
000000cd
ffffff5a
ffffffbd
000000f1
000000b7
fffffea6
00000107
ffffffd9
00000069
fffffdd1
fffffef5
ffffff44
ffffff69
fffffff0
fffffe7d
fffffe0a
ffffff76
0000010b
00000125
ffffff41
0000001d
fffffe67
0000000e
ffffff17
00000031
fffffe80
0000009b
00000043
fffffe63
000000ca
000000c4
ffffff98
ffffff35
fffffe97
ffffff1f
00000146
ffffff2e
000000c2
000001e2
ffffffdc
fffffe96
000000b9
00000090
fffffe93
000000f1
ffffffd4
ffffff90
000000cc
ffffff87
ffffffdb
ffffff13
ffffffac
000000cd
00000069
ffffffab
000000e6
00000130
ffffffbb
000000dc
0000007c
0000000d
000000fa
ffffff0c
00000139
fffffffc
000000a8
0000008a
ffffff23
0000009f
0000004f
00000033
ffffff7e
fffffe90
fffffe64
ffffff55
00000150
ffffff55
00000002
fffffebe
00000083
fffffe7c
00000127
ffffff62
00000041
ffffff3b
ffffffd3
00000046
fffffe42
ffffff0b
00000227
fffffe9b
00000080
ffffff94
000000a7
fffffff6
ffffffab
ffffff7a
00000005
00000028
00000026
0000008e
ffffff6d
0000002f
000000ca
ffffff74
ffffffd0
ffffff40
ffffffae
ffffff88
000001e7
ffffff6e
fffffed6
0000008e
ffffff9a
000000a4
00000071
00000088
fffffff2
ffffffb9
0000005f
0000004d
00000103
ffffff8e
ffffffd4
00000026
ffffffed
000000e6
00000015
ffffff7d
000000c8
00000018
ffffffa8
00000118
00000094
0000006b
0000007a
00000011
00000011
0000005f
000000bf
0000003e
000000bb
fffffef1
ffffff9e
00000074
000000b3
0000007b
000000b0
000000b9
00000072
00000072
000000c6
000000d6
0000013a
000000cf
0000005f
0000004b
ffffffd7
fffffffe
000000fa
ffffffeb
0000005f
00000027
000000d5
ffffffe2
000000c1
00000018
0000003f
00000018
0000006c
0000007c
0000008f
ffffffa9
0000000b
0000008a
00000025
ffffffcc
000000c1
00000048
000000dc
00000059
00000089
00000178
00000007
000000ff
00000148
00000045
00000095
ffffff9d
00000059
0000012c
000000f6
000000f5
0000007b
00000017
0000001e
00000003
000000c2
00000038
00000123
0000001f
000000d3
ffffffc4
000000b0
000000fd
000000eb
fffffffb
00000060
00000075
00000055
00000127
000000c7
0000012c
fffffff1
0000005a
00000090
ffffffd4
00000085
0000005e
000000ed
00000022
000000af
0000004e
ffffffd7
ffffffce
00000008
ffffffb3
00000026
ffffff4c
00000028
0000004d
00000092
000000cc
00000090
000000da
0000012a
00000033
000000fa
000000d9
000000c4
000000b8
00000137
000000e4
ffffff98
0000002e
ffffffa6
0000005e
00000089
ffffffb7
00000063
00000068
00000082
fffffffb
00000004
00000016
00000013
ffffffbf
00000017
0000001d
00000006
00000015
0000005d
00000078
0000006c
00000012
000000a5
00000067
0000007e
0000004d
000000ab
0000008b
00000020
0000007e
00000017
ffffffc0
ffffffb2
ffffffaf
00000059
00000095
ffffffc2
00000007
00000006
ffffffa9
0000002e
00000003
0000008d
00000113
00000028
fffffff9
0000004e
0000004a
0000002b
fffffdff
fffffff7
fffffe32
ffffffdc
00000033
0000011f
000000b5
ffffff39
00000018
ffffff91
fffffdc4
fffffebb
000000e7
fffffea7
ffffff9c
0000002a
0000000b
ffffff7d
00000046
0000001a
ffffff10
000000ab
ffffff7b
0000004a
ffffff80
000000be
fffffee8
ffffffbc
0000010a
ffffffbc
0000006b
ffffff62
fffffff8
ffffffab
ffffffbe
000000aa
ffffff93
ffffff26
ffffffb4
00000053
000000df
fffffee7
0000013b
ffffff43
00000163
000000f5
0000002d
ffffffa8
000000df
fffffed6
0000006b
ffffffc2
ffffff4c
0000005f
00000078
ffffffa6
ffffffe7
ffffffbb
00000096
ffffff6c
00000020
00000049
000001af
000000ab
000000ea
000000bb
ffffff54
000000a6
00000071
fffffeaa
000000aa
0000007f
ffffff1f
ffffffc7
ffffff09
fffffef0
ffffff5f
ffffffaa
fffffee6
ffffffe9
fffffffe
0000005c
00000128
00000069
0000013c
fffffedd
000000c5
ffffffa4
00000061
ffffff86
00000058
fffffedb
ffffffd7
00000020
00000133
ffffff9d
000000a4
ffffff0b
ffffff09
fffffed1
0000010f
fffffff0
0000006e
000000ac
ffffffd4
0000007f
fffffec3
000000cc
ffffffa7
ffffff4f
00000076
00000041
00000083
00000089
ffffffd8
0000006a
00000130
000000d4
0000008a
0000000a
ffffffb2
fffffefb
000000d3
00000081
000000d1
000000fb
ffffffdb
00000071
000000f7
00000088
00000080
00000103
ffffffe4
00000091
00000014
0000003d
ffffffbd
0000005a
0000007f
ffffffe0
00000093
ffffff89
000000d8
00000075
ffffffe3
0000012f
0000009d
00000100
0000009a
000000ba
00000135
000000c6
0000009d
000000ac
0000007e
00000055
00000010
000000a0
00000092
000000ab
00000010
000000cc
000000c4
000000c7
0000006c
0000008a
00000100
00000156
00000081
000000f0
000000f9
000000cf
00000029
00000001
ffffffd4
00000028
00000046
0000003d
0000000e
0000006b
ffffffcd
fffffffd
0000008c
000000f3
00000018
0000005f
00000081
00000007
0000001d
000000c4
000000cb
ffffffce
0000005c
00000061
fffffff2
0000003c
00000035
000000d9
000000c2
000000b9
00000012
ffffffdb
00000012
00000053
00000023
00000073
ffffffe8
0000006a
00000044
000000d0
00000012
00000049
00000073
00000090
0000005f
00000079
00000064
000000f2
00000061
000000e2
00000166
00000034
00000051
00000013
ffffffe8
00000051
ffffffad
000000d1
00000061
0000001c
00000017
0000015a
00000087
0000012e
000000a0
0000009f
fffffffd
00000054
000000dd
00000093
000000b1
000000d7
00000003
00000099
00000046
000000ac
ffffffe7
000000ca
000000a8
0000009e
ffffffaa
ffffffa0
00000011
ffffff2d
0000004b
ffffff7a
ffffff55
ffffffda
ffffffd0
ffffffca
ffffffd5
ffffffdd
00000098
ffffffdd
00000040
00000074
ffffff4a
0000005d
0000002a
ffffffcb
000000d4
ffffffe4
ffffff47
00000064
00000141
000000f3
00000024
ffffff55
00000101
00000026
00000005
fffffef9
fffffed9
fffffe8e
ffffff49
00000035
0000006a
fffffef3
ffffff90
ffffff0c
fffffe59
ffffff0e
ffffff7b
00000029
00000086
0000021f
00000090
000000ec
0000004d
00000099
fffffe4c
000000da
ffffff7f
ffffffdd
0000005c
ffffffa8
fffffed4
ffffff4c
ffffff50
fffffebc
ffffff6c
fffffeeb
fffffeaa
000000e7
fffffe48
00000059
00000060
ffffff2e
00000062
00000038
000000d3
000000d7
ffffff7d
ffffff78
fffffff0
fffffefb
00000003
ffffff6e
00000089
000000e7
ffffff0b
0000007f
00000006
00000005
ffffffe0
0000012b
0000001b
000001d4
000000e6
fffffee9
00000090
ffffff84
ffffff29
fffffef6
00000167
ffffff47
00000037
00000038
fffffffb
ffffffbe
00000058
fffffead
00000072
00000042
0000011c
fffffebd
ffffff76
00000166
ffffff51
fffffec0
ffffffaf
00000151
000000b4
00000002
000000e9
ffffff3a
ffffff1a
000000fc
0000003a
0000006e
fffffe98
fffffe7c
00000015
00000070
0000008d
fffffff6
ffffff13
00000064
0000006e
ffffff96
00000077
fffffffe
ffffffec
ffffff65
00000022
ffffff9d
000000d1
0000008d
00000039
0000007f
000000a0
0000011b
000000d3
000000fe
0000019f
0000003b
00000058
0000014d
00000102
0000007c
000000f6
0000005f
000000f0
000000a6
00000058
000000ca
0000005c
00000197
0000004a
0000011c
000000cf
ffffff11
00000062
0000003b
00000066
00000096
00000014
00000064
00000068
00000013
ffffffa6
0000006d
ffffffef
0000001a
00000077
00000010
ffffffff
0000007e
00000052
00000047
000000b4
fffffff3
000000e8
00000091
fffffffe
000000f6
0000002c
000000a8
000000a6
0000003c
0000011b
000000e6
00000014
00000103
000000ed
000000c7
000000d4
0000018a
000000da
000000f7
000000fd
0000006f
0000017d
00000128
000000b0
0000011d
000000a0
0000013c
000001a2
00000126
000001d6
0000013b
000000c6
0000013c
000000a2
000000e7
00000036
00000105
0000009c
0000017d
0000005c
00000139
000000ac
000000ce
00000078
00000096
00000045
0000012a
00000067
000000de
000001bc
00000023
00000037
00000092
ffffff90
00000084
ffffff7d
000000dd
00000093
00000090
000000eb
000000e1
000000ae
000000b5
00000019
000000ad
000000bd
0000001d
000000aa
0000000e
00000099
ffffffa3
ffffffe6
00000043
00000088
ffffffe3
ffffff6d
000000e4
0000002d
000000a7
ffffffd9
ffffffd5
0000001e
ffffffd2
ffffff9f
0000002c
00000038
00000016
00000018
00000022
00000055
00000039
000000f1
00000068
0000009f
000000b7
ffffff73
0000012b
0000003e
00000059
ffffff8e
ffffffb4
ffffff10
ffffffae
ffffffac
ffffffea
ffffffdb
ffffff81
fffffff0
ffffffe5
000000f5
fffffff3
0000006e
000000ce
ffffff78
ffffffe4
ffffffe7
00000040
00000091
ffffffca
ffffffcf
0000002b
00000019
ffffff80
ffffffef
00000075
ffffff88
0000008d
ffffffab
ffffffdb
ffffff48
fffffd68
fffffe7a
fffffe89
ffffff4c
000000e0
ffffff11
fffffff0
0000006d
ffffff67
fffffd80
ffffff3b
ffffffd9
fffffef9
0000009f
00000097
fffffee3
ffffff36
0000005f
ffffff5e
fffffdd7
fffffe8e
ffffff33
0000005c
000000c6
0000016d
000000d6
ffffffe3
00000136
fffffe9b
fffffece
ffffffb2
0000014c
00000103
00000014
ffffff13
fffffeaf
ffffff38
ffffff9e
00000079
ffffffd0
00000133
000000c0
000000cb
00000135
000000d9
ffffffdb
ffffff4d
ffffffd8
ffffff6c
00000022
00000074
000000fc
ffffff95
00000097
00000134
ffffff40
00000102
000000aa
00000033
000001c8
fffffed6
ffffffe8
fffffec2
0000009d
fffffe99
000000bf
ffffff81
0000004c
fffffed2
ffffffcf
000000bf
ffffff0d
000000f8
fffffdca
fffffe84
00000019
00000123
ffffff1c
fffffe09
00000030
000000a8
000000a5
00000111
fffffe4c
fffffe85
000001b5
00000027
0000008c
ffffffca
000000a0
0000002f
0000009a
ffffffa5
00000071
ffffff8d
ffffff1c
00000073
ffffff6a
ffffffb5
ffffff35
ffffff04
ffffff27
000000a4
00000025
0000005b
0000003f
ffffffff
000000e4
00000045
0000006c
000000e3
00000061
00000090
ffffff4c
0000007f
ffffffa4
00000071
0000001f
00000004
00000147
000000ac
fffffff6
000000a2
000000ef
000000c6
0000008c
0000009e
00000134
000000a2
0000007f
0000007b
0000011e
0000010d
00000050
0000009a
0000001d
00000125
000000f2
000000ac
00000084
ffffffd6
0000005c
00000013
ffffff88
00000019
ffffffc4
00000002
0000000a
fffffffe
0000009d
00000157
0000007f
00000071
0000015a
00000103
0000005e
000000fe
0000012c
00000110
0000006b
00000013
0000007e
ffffffc7
ffffff2b
0000002d
00000042
0000007d
ffffffc7
ffffff94
0000007b
0000018b
00000086
000000d7
000000dc
000000cb
00000085
00000083
000000c8
00000106
0000009b
fffffff1
0000001f
00000037
ffffffa7
fffffffe
00000041
00000114
0000000b
00000069
ffffff15
ffffff9d
00000062
0000004a
ffffff5a
ffffff5a
ffffff60
ffffffdc
ffffff99
00000009
000000b9
00000076
00000058
0000007c
0000008e
ffffffe9
ffffffee
000000bd
00000019
00000081
00000055
0000009f
00000073
00000052
00000000
00000004
ffffff2b
00000101
000000a8
00000094
000000a1
000000bd
00000024
000000e5
0000005b
00000093
ffffff9d
000000e8
00000087
0000005b
0000011b
fffffff9
000000ee
0000011f
00000096
00000005
ffffffcb
000000d8
0000008f
0000006e
0000016b
00000075
00000087
0000011a
00000014
000000b6
00000064
00000002
000000e9
0000004a
ffffffb3
ffffff96
00000002
ffffffc6
000000bb
00000026
00000095
00000021
0000002f
ffffffd5
ffffff4d
00000076
00000002
0000009a
fffffff1
000000d5
fffffe99
ffffffc4
0000004a
00000051
00000028
ffffff4c
0000007c
ffffff6e
00000088
0000000b
ffffff7b
00000001
00000045
fffffff5
00000128
fffffe2e
ffffff23
fffffc93
ffffff75
000001c6
ffffffa3
00000043
00000008
ffffffa7
fffffebb
ffffffe0
fffffe2d
ffffff4b
0000003c
0000012d
ffffff16
00000081
00000085
00000051
fffffe86
00000088
000000ce
00000107
ffffff35
00000205
ffffff5f
fffffe99
0000014c
0000000f
fffffeec
fffffea3
00000087
fffffeeb
ffffffaf
000000fd
ffffffe6
000001d2
ffffff1b
000000b7
fffffea4
0000014b
ffffff2f
000000a5
fffffea9
00000025
ffffff78
ffffffc6
ffffff19
ffffff96
0000006c
ffffff06
ffffffff
000000d5
fffffffc
0000005d
00000054
fffffff3
fffffffd
fffffe7d
ffffff57
ffffff6c
fffffee8
00000021
fffffebc
ffffffc4
fffffe7c
00000123
ffffff7c
ffffffa1
000001cf
ffffff82
00000144
00000022
00000052
fffffe3c
fffffe75
00000053
0000002c
ffffffdb
00000018
00000019
fffffea9
ffffffc4
000000d8
0000019d
ffffff05
000000f5
0000002d
ffffffbf
00000142
fffffea3
00000140
000000aa
ffffff6f
ffffffb9
00000042
00000097
00000065
0000000b
ffffffc2
fffffe46
0000012a
fffffff3
ffffffbb
ffffffe1
fffffed8
0000004b
0000001d
00000048
ffffffde
fffffff3
ffffffee
ffffffa8
00000076
ffffffc5
000000be
00000047
ffffffea
ffffffe9
00000005
00000100
000000cb
000000b9
000000e9
00000183
0000010a
0000008e
000000ec
000000ee
00000146
000000b1
0000009f
0000000b
0000006d
000000ef
00000040
0000009d
00000077
000000c2
00000081
00000095
00000087
ffffffc5
0000005c
000000da
000000cd
000000b9
000000b3
000000bd
00000097
000000b5
00000056
000000ab
000000a7
0000011c
0000001b
000000e2
000000e1
000000e0
000000da
000000ce
00000093
00000012
00000123
00000108
ffffffb6
0000004f
000000df
000000ed
00000189
000000d1
00000072
000000f6
0000003a
000000c6
000000ae
0000011c
000000b0
00000060
00000056
000000f1
00000059
0000006d
ffffffa8
00000074
ffffffa6
000000b5
0000001c
00000060
0000009c
0000014c
0000000c
00000098
00000035
00000003
ffffff9b
0000009d
fffffffb
00000014
00000019
ffffffde
ffffffa1
0000001d
ffffffa1
ffffffeb
00000026
000000a2
ffffffde
ffffffb5
0000014b
00000111
00000161
00000177
0000010a
00000062
00000067
00000159
000000a7
000000c9
000001da
000000e0
00000138
00000101
000000fb
00000093
000000a5
000000ef
000000cf
00000119
ffffff9a
0000001e
ffffff8c
ffffffbd
ffffffde
ffffff64
ffffffa0
00000012
00000023
ffffffeb
0000001c
ffffff49
fffffff8
0000008c
fffffffc
fffffff8
0000002d
000000e9
0000006f
0000005c
00000027
00000100
ffffffa6
ffffffce
ffffffb9
00000057
ffffff99
00000045
00000046
00000007
ffffffd1
fffffee2
ffffffaf
0000008d
000000c1
ffffff63
ffffff39
00000024
00000001
ffffff69
00000046
ffffff8b
fffffefd
00000073
fffffe6a
00000020
fffffee2
ffffff79
ffffff95
ffffffa5
ffffff70
fffffe1f
fffffda7
fffffdcb
ffffffb1
000001c6
00000004
fffffe55
ffffffa0
fffffeef
fffffef3
00000081
ffffff3b
ffffffd8
00000007
0000019e
ffffff68
0000012e
ffffffc1
ffffffde
fffffe70
000000c2
ffffff0d
ffffffff
ffffff94
00000086
ffffffa3
0000012f
000000b4
00000013
fffffee2
000000a2
000000ce
fffffead
000000d5
ffffff0f
00000084
ffffffd5
ffffff9b
00000109
00000122
0000004e
fffffeee
00000135
ffffff6c
fffffec9
0000008f
fffffeeb
0000015e
00000046
ffffff8d
0000002c
00000034
0000003a
fffffe52
fffffec7
000000c2
00000081
ffffff28
ffffff38
00000150
0000010a
ffffff7a
ffffffeb
ffffffe4
fffffecc
ffffff3f
00000239
ffffff5a
ffffff11
ffffffe4
fffffec7
000000d5
00000183
000000fb
ffffffea
ffffff6f
0000002b
00000098
ffffffbd
fffffe52
ffffffff
00000021
0000014d
ffffffb0
00000032
00000110
0000008e
000000d5
ffffff62
0000004f
ffffff71
000000d7
ffffff82
0000006a
0000004f
0000001e
ffffffb0
00000044
000000a6
00000062
ffffffc3
0000001a
000000bf
0000007f
0000007b
ffffff83
00000059
00000095
00000081
0000009f
0000006a
00000005
00000017
0000000b
00000111
0000003f
000000aa
000000e9
0000005c
000000db
0000004d
fffffff4
0000000d
00000115
0000001c
0000005e
0000001b
00000056
000000c9
ffffff5b
ffffff3e
ffffff44
ffffffe9
00000120
000000b0
fffffffa
000000be
000000e6
00000073
00000069
00000055
ffffff89
00000055
00000053
0000002b
fffffff8
0000000e
0000007f
0000003b
0000007d
fffffff3
0000001c
ffffffe2
00000064
00000018
00000090
000000bf
0000002d
000000a1
ffffff5d
ffffffb9
ffffff4b
00000039
000000be
00000092
0000007b
0000001d
00000051
00000031
0000007b
000000e5
fffffffb
000000c8
ffffffd4
0000012d
0000010c
000000a3
000000d4
000000e0
ffffff4f
00000073
ffffff64
0000005b
ffffff46
00000018
ffffffd1
000000fc
000000a3
00000056
00000060
0000012f
0000003f
000000b2
00000151
00000070
00000061
00000157
00000080
00000153
ffffffe3
000001d6
0000012a
00000111
00000126
000000fc
00000089
0000013a
00000108
0000015d
000001a8
00000029
0000001b
000000c6
00000157
00000060
00000062
00000158
0000009e
00000177
ffffff27
0000009a
0000005c
000000c0
0000002e
0000005f
00000050
0000015e
00000073
000000c3
000000ae
00000041
00000051
00000090
00000078
ffffffc6
ffffffc0
000000fb
0000002a
000000bd
000000c6
000000b2
000000b4
000000e6
000000a1
ffffffbe
00000117
000000ef
00000091
00000121
0000017b
ffffffb6
000000dd
0000009c
0000000a
ffffffe2
000000d3
00000089
00000062
00000081
0000007b
00000196
ffffffff
ffffffa5
ffffff1c
fffffe63
ffffff82
0000011f
00000036
000000b3
00000016
fffffe49
ffffff76
ffffff14
ffffffec
0000011d
000000a3
ffffff89
00000072
ffffff6b
0000005a
fffffe94
fffffffe
fffffde6
ffffff11
00000290
fffffff3
fffffe85
ffffffff
ffffff49
ffffff44
ffffff4f
000000d8
00000100
fffffeca
000002cd
ffffff11
fffffffc
ffffffc2
fffffff5
ffffff9c
00000154
000000cf
000000c1
fffffe43
000000d6
ffffff16
ffffff15
000001ad
000000fa
00000052
ffffff06
000000b7
ffffff1c
ffffff57
ffffff6a
fffffe84
ffffff6b
fffffe78
ffffff35
000000c8
0000009f
ffffffca
00000146
000000cc
00000076
00000093
0000002e
000000be
00000047
0000007a
0000000b
ffffff80
fffffef7
ffffff94
00000008
0000001f
ffffffb8
ffffff9a
0000000a
0000010b
000000c6
fffffeee
ffffffaa
ffffff30
000000ce
00000085
000000e2
fffffe9c
ffffff4e
fffffff3
00000048
fffffd17
00000187
ffffffc0
ffffff52
ffffff0d
000000bf
ffffffd7
ffffffe4
ffffff81
00000032
00000077
0000005f
ffffff71
000000bb
ffffff47
00000171
00000009
00000194
ffffff86
000000bd
ffffff72
ffffffc5
00000090
0000006e
0000007b
0000005d
00000060
ffffffc0
000000e8
fffffef2
00000010
00000002
000000e7
000000cf
00000080
000000e9
00000032
00000164
ffffffc9
ffffff4d
fffffe39
ffffff8f
0000002e
ffffffdd
ffffffc3
ffffffc5
fffffffb
ffffffe2
00000020
ffffff1e
ffffff8d
ffffffa1
ffffffc8
00000063
00000062
00000103
0000001e
0000004f
000000ac
0000014f
00000086
000000a0
000000f4
00000093
000001e5
000000cb
000000c4
00000165
00000019
00000020
ffffffe8
0000005e
000000f0
000000d9
ffffffef
00000099
00000038
000000b3
0000003c
000000a3
ffffff82
00000038
0000005f
000000ca
00000081
ffffffba
00000072
0000001f
00000148
0000008e
ffffffd9
0000005c
0000019f
0000005b
0000004a
0000003e
0000007d
00000075
00000009
0000010e
ffffff93
0000004f
00000073
000000e4
0000006a
ffffff49
00000099
ffffffff
0000000c
0000014e
ffffffed
00000078
fffffff0
00000010
00000006
0000001c
00000020
0000007f
ffffff64
0000008e
ffffff68
00000083
0000000b
00000065
fffffff4
000000d6
00000067
00000033
00000002
000000ac
0000005e
000000b2
00000113
0000004d
000000d0
0000016a
0000005a
000000ef
00000069
000000eb
0000009e
000000c1
00000024
0000009a
0000009a
00000092
00000130
0000007a
00000083
ffffffb7
0000001e
fffffff9
00000037
ffffffd0
0000000a
0000004e
ffffffa3
00000035
000000a4
00000049
000000e6
0000000f
00000021
0000002a
00000013
ffffffa5
000000d5
00000034
0000016d
00000029
00000127
0000010f
0000011d
0000005d
00000079
0000012a
0000011e
00000167
0000001b
00000089
ffffffe3
ffffff7c
000000b7
ffffffcc
fffffffb
ffffff47
000000a5
000000c6
0000005c
0000005e
00000047
0000008a
00000128
fffffe15
0000014a
000000e8
00000079
000000ff
00000085
00000148
fffffea8
fffffe80
ffffff50
fffffe03
000000c8
ffffffd2
00000080
000000d8
000000ba
0000001b
00000049
ffffffd6
00000032
fffffbd5
0000007a
fffffe19
00000191
ffffff8b
fffffe7f
fffffffe
00000077
000000c1
00000023
fffffed0
ffffff43
ffffffda
ffffff8e
fffffea0
fffffee7
ffffffc9
000000bd
ffffff73
00000070
000002e2
fffffebd
00000162
ffffff07
fffffe8d
0000007c
00000089
ffffff69
0000012a
ffffff66
ffffffde
ffffff12
ffffffd9
ffffff12
ffffff52
0000005c
ffffffa6
000000e3
ffffffaa
0000015f
fffffff4
ffffff10
ffffff64
ffffffe2
00000097
ffffff87
ffffffb7
ffffff34
ffffff65
ffffff13
ffffffe1
00000070
ffffffe2
fffffed8
fffffff3
ffffffe9
fffffe9e
00000030
fffffed0
fffffedc
fffffec1
0000012f
00000190
00000160
0000005e
ffffff9b
ffffffe3
ffffffb6
ffffff58
0000007c
ffffffad
ffffff5b
00000153
ffffffbd
ffffffdd
00000070
ffffff45
fffffe55
fffffef3
fffffedd
ffffff2c
00000003
ffffff87
00000080
00000058
fffffff2
00000107
fffffed9
ffffffd3
ffffffd6
00000023
00000099
0000006d
ffffffcb
0000013d
000000fd
00000016
ffffff96
00000030
000000ba
0000009b
00000207
0000005c
00000048
00000018
0000009c
ffffff3e
ffffff4c
ffffffe2
00000079
00000088
00000056
00000087
00000071
0000004b
0000003b
0000017d
0000002d
0000006b
0000013b
0000005d
000000b4
00000011
0000003a
000000be
00000075
00000075
fffffffc
0000005d
000000e4
00000046
ffffffce
0000000d
0000006e
fffffff4
00000141
ffffffcb
000000ac
0000009c
0000011a
000000d9
00000198
000000ce
000000b5
000000e0
ffffffe1
ffffff64
00000045
00000032
0000011d
00000088
ffffffa3
000000ac
00000004
00000087
00000083
00000120
000000b4
00000094
000000e7
000000f5
000000cc
ffffffb2
000000dc
00000060
ffffff5a
00000070
000000b9
000000ce
0000005f
0000014e
00000115
ffffff75
000000e6
000000c8
ffffff8d
0000006b
000000c8
000000d7
00000014
0000002d
00000006
0000008a
0000007d
00000073
ffffffea
0000011e
0000003b
0000003c
0000015d
000000d0
000000cc
000000a6
00000118
00000104
ffffff17
0000006d
ffffffdd
0000004c
00000085
ffffff5b
0000000c
0000005f
fffffffa
00000080
00000055
000000bb
ffffffaf
ffffffd9
00000031
fffffffb
ffffff58
000000b9
ffffff8e
0000008e
ffffff9a
0000002b
00000016
00000082
0000006f
00000022
0000001a
00000004
000000b9
000000c3
0000008f
00000026
0000007b
000000e6
000000ce
000000f2
0000010f
00000136
000000ad
000001a3
00000026
00000157
000000a8
000000d0
000001a3
00000150
00000128
00000118
000001ab
00000102
00000025
ffffffa9
ffffffe6
fffffff1
00000066
fffffff0
000000d4
0000001c
ffffff9e
0000000a
00000023
0000004d
fffffffc
fffffe0b
ffffffcf
00000065
00000090
ffffffea
000000d8
00000020
00000094
ffffff5d
00000062
000000f3
ffffffcc
ffffff30
0000010c
ffffff9a
0000003d
ffffff6c
00000051
fffffe0a
000000a7
fffffd95
fffffee7
fffffdfb
0000004b
00000024
ffffffa5
fffffe9f
ffffffb9
fffffe6f
000001d3
00000022
00000072
ffffff1f
fffffee7
0000017c
00000127
fffffeb0
fffffe78
0000010c
000001d6
00000129
fffffe57
00000216
ffffff70
fffffed9
ffffff64
00000114
00000026
ffffffee
0000012b
000000c3
ffffffb9
ffffffef
ffffff29
fffffff8
ffffffed
000000d9
0000002e
000000cd
00000018
000000be
fffffee6
00000034
ffffff54
00000004
fffffea1
00000020
ffffff54
ffffffb5
ffffff25
000000b2
000000f7
ffffffe5
fffffecb
ffffffde
ffffff79
00000139
00000141
000000d6
ffffff00
ffffff14
00000064
000000d7
ffffff36
fffffff3
fffffec7
ffffff66
ffffff2f
000000e8
0000013b
ffffff9e
ffffff98
00000088
ffffff46
000000f0
00000106
ffffff7b
ffffffdf
00000035
ffffff4c
0000011b
000001d6
ffffffd6
fffffef8
00000117
fffffd9d
00000065
ffffffe2
000001b8
ffffff26
ffffff07
0000001b
00000070
0000004f
0000004f
ffffff4b
ffffff3a
00000038
ffffffb9
ffffffc0
0000001f
000000d2
fffffffc
00000050
0000004b
0000003b
000000c8
0000011d
ffffffa2
00000069
ffffffcd
000000b4
0000001c
ffffffa7
00000019
ffffffe9
000000b8
00000039
00000104
fffffffd
fffffff5
00000017
ffffffdb
fffffffd
00000061
ffffffaa
ffffffc0
00000085
ffffffa8
ffffff99
00000079
00000059
000000bd
000000eb
00000073
0000002c
0000005d
00000049
ffffffb3
00000067
00000045
0000009e
000000a3
000000af
0000007e
00000025
0000002b
000000b8
00000034
00000059
000000bd
000000f7
000000e1
0000010d
00000012
00000136
000000a4
00000155
00000099
000000e2
000000b2
00000135
00000104
000000f1
ffffff66
000000f7
0000006b
000000ec
000000be
00000072
00000082
00000054
00000023
000000aa
000000b2
00000079
000000a6
fffffef5
000000ef
00000069
00000090
000000c0
00000105
fffffffe
0000008c
00000093
000000d4
00000016
000000e2
00000078
000000c5
000000e9
0000000e
000000e2
00000085
00000076
000000c5
ffffffb7
0000007c
00000052
0000002b
00000031
00000057
00000029
00000027
00000062
00000044
00000021
000000aa
00000064
000000ca
0000016e
00000071
00000063
0000008e
000000b6
000000ab
00000141
000000c5
000000e5
0000007d
00000079
00000040
00000068
00000121
00000016
0000003d
0000006b
ffffff7e
0000002e
ffffffea
0000013a
fffffff9
0000003d
000000df
00000086
00000049
00000083
0000005f
0000004f
ffffffe0
ffffffe2
ffffffd2
ffffffeb
00000096
ffffffb0
0000009e
ffffffb0
00000003
fffffff6
0000006c
0000002a
0000000d
0000004f
ffffffa2
00000044
00000010
000000e3
ffffff80
0000001d
ffffffd5
00000162
0000005f
00000033
0000010d
ffffff69
0000014c
00000020
00000054
ffffff57
0000000d
ffffff86
000000b2
00000098
000000d3
00000031
fffffebd
000000f1
ffffff82
00000096
00000034
ffffff3e
ffffffc6
00000154
fffffedf
00000027
ffffff2c
00000073
ffffffc6
ffffffaf
fffffe81
00000025
fffffe8e
00000024
fffffe89
0000003a
fffffeec
fffffe9e
0000006b
000001ab
ffffffb1
00000041
fffffe7e
ffffff52
00000088
00000067
0000008c
fffffea0
00000029
0000020c
000000d9
fffffe7f
ffffffe7
ffffff2d
00000126
00000061
fffffeae
00000089
00000130
0000015a
0000010b
00000059
00000070
00000105
ffffff96
ffffff3f
fffffe98
ffffffc0
ffffff87
ffffff4e
00000092
ffffff95
fffffffc
00000127
ffffff46
ffffff77
00000030
ffffffeb
0000018a
ffffff98
000000d2
00000037
00000095
fffffed6
ffffffc5
ffffff43
fffffed0
fffffdd4
ffffffaf
ffffff5c
000000b4
00000071
ffffffb1
ffffff7b
000000aa
ffffff74
00000013
0000015a
0000010a
00000069
fffffea0
00000020
000000cc
fffffec1
ffffff3c
ffffffd3
000000a5
0000009d
ffffff0c
000000de
000000be
000000b7
ffffffa0
ffffff71
00000015
ffffffba
00000105
0000005d
ffffff46
00000113
000000eb
0000008d
000000f7
000000db
000000f4
00000064
00000111
00000077
ffffff40
00000011
ffffffbd
00000099
0000001b
0000014a
ffffffdf
ffffffe3
ffffffcf
000000e1
000000f2
0000001f
0000005b
0000008b
00000063
00000061
0000002d
00000061
000000ba
00000146
ffffffd9
000001d9
000000b8
000001af
0000013f
00000130
0000005e
000000e1
000000af
00000084
00000028
00000095
0000008d
000000d5
000000e2
000000c8
00000130
000000d0
000000f3
0000007e
00000024
00000092
ffffffe8
000000e1
fffffff0
000000a0
ffffffef
ffffffc4
00000070
0000008c
000000a9
00000007
000000ea
00000040
000000ba
000000aa
ffffffde
0000008b
00000001
ffffff15
000000e4
00000089
ffffffe5
00000036
000000a7
00000088
ffffffb3
000000a9
00000039
fffffeb4
00000193
00000065
00000089
0000000f
ffffff96
000000d1
ffffffa5
0000006a
ffffffa5
ffffff7e
fffffff3
00000009
00000066
00000022
00000066
0000005d
fffffffe
0000005b
00000054
ffffffe4
00000188
000000c8
0000009b
000001a5
00000012
0000006f
0000006e
0000004a
00000139
00000009
ffffff67
00000019
00000033
00000056
0000003b
0000000d
00000188
0000000e
000000a8
0000002d
ffffff93
00000024
00000046
00000053
000000d2
00000081
00000060
000000a0
0000006c
00000046
fffffe0d
0000010a
000000b3
00000046
000000b6
000000a2
000000cf
0000008b
0000009c
00000047
00000039
fffffee5
0000003e
00000072
ffffffeb
ffffffc1
00000015
ffffff8f
fffffff5
000000b3
ffffff42
0000006d
0000003d
ffffffce
000000b2
000000af
000000d5
0000001b
ffffffe0
ffffffd4
00000171
ffffff52
00000131
0000006d
fffffff3
ffffff6d
000000ed
0000009f
00000071
00000157
fffffeb9
0000004a
00000070
00000062
000000ac
0000012d
00000095
fffffeee
00000048
0000009c
ffffff7a
0000000e
0000010a
ffffff2f
000001f6
fffffef0
ffffffab
ffffffb4
fffffd49
ffffffff
fffffff0
0000001e
fffffe3e
fffffe8f
ffffff56
000000e6
fffffe16
00000060
fffffe30
fffffee6
ffffff9d
0000033a
00000155
fffffe36
0000008e
ffffff96
ffffff84
fffffff6
ffffffa0
00000119
00000144
ffffffac
fffffebc
ffffff45
00000124
000000ba
fffffffc
fffffff2
fffffead
fffffefb
fffffe9f
000000ac
ffffffd4
ffffffeb
ffffff5f
0000010d
000000ba
0000001e
ffffff23
0000004c
ffffff96
ffffff03
fffffec7
000000f8
000000cd
00000086
fffffee9
ffffffb7
00000069
ffffff41
0000000f
ffffff11
00000046
ffffff77
000000df
ffffff5e
ffffff8d
ffffff9c
fffffef9
ffffff66
0000014d
00000152
fffffff3
ffffff40
0000003f
fffffedf
ffffff60
000000c7
ffffff6d
ffffff7b
000000a1
000000e3
000000f7
ffffff87
ffffff08
ffffff26
0000008c
ffffff63
000000c8
0000014b
000000ad
00000088
00000015
ffffffc9
0000006f
ffffffce
0000002a
0000005d
ffffff72
00000184
00000078
00000162
000000d3
000000ff
000000ea
000000f7
00000062
000000c0
0000007c
000000b7
ffffffc3
ffffffa1
ffffffb0
ffffffe3
ffffff71
00000015
ffffffdc
ffffffd6
00000007
0000007e
0000003f
fffffff2
ffffff4c
000000e8
00000012
00000111
00000065
0000005e
0000005a
000000e6
0000014d
00000084
000000f9
000000a0
00000021
000000aa
000000f4
00000048
000000b4
0000010b
000000ab
00000123
0000009a
00000080
000000ec
00000118
ffffffbc
0000010a
00000024
ffffffc7
000000b4
00000087
000000b4
00000115
00000055
00000126
ffffffce
000000d9
000000da
000000ec
0000009a
000000ec
00000042
00000035
000000ca
000000bf
000000b0
000000ce
00000053
fffffe4d
ffffffc1
0000006f
000000c9
00000017
ffffffcc
ffffffd0
0000002c
ffffffc2
ffffffca
0000003f
00000031
00000053
00000021
0000013b
00000043
0000009f
00000033
00000083
000000f8
0000012a
000000b2
0000012e
000000d5
00000125
000000ed
00000068
00000128
000000d1
00000092
ffffff27
0000000b
0000002c
ffffffa7
00000060
00000013
000000a0
00000012
00000090
0000000e
00000112
ffffffd7
00000145
0000009f
000000e8
0000009a
fffffff7
000000bd
000000b6
000000e4
ffffffd2
ffffff6a
0000000d
0000000e
0000007e
ffffffdf
00000033
000000a1
ffffffc8
0000003c
00000048
0000000f
ffffffca
00000035
000000a5
fffffff3
0000002f
0000008a
ffffffb2
00000018
0000007b
ffffff4d
0000006c
00000072
fffffff0
0000002c
00000038
00000099
0000007b
0000000a
000000be
ffffffda
00000035
00000024
000000d8
ffffffa9
fffffff2
00000023
ffffff1a
ffffff6e
00000009
0000008d
0000013b
ffffffff
00000055
00000089
000000f9
00000113
ffffffe7
0000013b
ffffffc0
ffffff8f
fffffff7
00000059
0000003b
ffffffc7
ffffff7d
ffffff57
000000a0
ffffff9b
ffffff36
000000da
0000007b
0000016f
fffffe22
fffffeb7
ffffffae
ffffff4a
ffffffd4
fffffef3
ffffff41
ffffffee
000001ac
fffffd3e
ffffffcb
fffffeec
ffffffaf
fffffd66
fffffee7
fffffedf
ffffff9a
0000008f
00000209
ffffffb1
ffffffa7
ffffffd2
ffffffd5
fffffec7
fffffeb2
00000087
fffffff1
0000006c
00000174
ffffffd5
000000a4
0000004c
ffffff8c
00000112
fffffe90
0000007f
0000003d
fffffeb6
fffffeed
000000af
ffffff55
00000103
ffffff60
000000b0
ffffffd4
fffffec1
ffffffee
ffffff5d
fffffedb
00000140
ffffffe3
fffffece
0000007b
ffffffaf
000000ff
ffffffb7
fffffec2
00000051
000000cc
000000e4
0000004f
fffffef8
0000012b
ffffff79
ffffff4d
ffffff36
fffffeda
0000002f
00000055
0000006f
ffffff94
00000167
ffffff89
ffffff5f
ffffff52
fffffffb
ffffff97
000000b0
ffffff87
000000cc
fffffeda
00000006
fffffe5c
fffffef4
000000c9
fffffede
0000003a
ffffff0a
0000006b
0000000d
ffffffbd
00000039
00000138
ffffffe3
fffffe21
ffffffdf
ffffff82
fffffece
fffffffc
00000015
ffffff44
00000059
00000009
00000030
ffffff5b
ffffffe4
0000008a
000000e4
000000a3
00000057
00000108
00000026
fffffffe
00000078
00000047
000000be
00000005
0000009d
0000008c
00000007
00000033
ffffffb4
000000e0
fffffff9
0000007b
0000004d
00000096
fffffff9
0000010e
00000012
0000014f
0000007c
00000128
0000008a
000000db
000000eb
000000bb
fffffff7
0000008d
ffffff98
00000041
ffffff91
00000104
ffffff98
00000022
0000000b
ffffffeb
ffffff7b
00000074
ffffffed
ffffffb6
fffffff0
00000059
0000000d
fffffff3
ffffffe7
00000143
000000ef
00000069
0000002a
000000f6
fffffffc
000000d4
00000059
000000f7
0000009c
ffffff5f
0000018f
00000125
00000031
00000052
00000076
000000ce
0000005c
000000d9
00000064
ffffff9d
00000162
0000006a
0000004a
000000aa
0000002c
000000e0
00000077
00000078
00000014
0000005b
000000de
000000dd
0000008d
0000012c
000000dd
000000f3
0000010f
000000b9
00000139
0000005d
000000ad
00000094
00000029
000000f1
00000013
0000001f
0000001a
00000021
0000003b
0000006e
ffffff8c
ffffffd3
00000044
00000061
000000bd
00000047
00000092
ffffffea
0000000b
0000005c
fffffff8
00000079
000000ad
00000040
000000b8
0000010a
ffffffed
0000002c
00000030
000000b9
000000b5
000000d6
000000bf
00000042
000000c2
00000098
00000088
000000d2
00000072
000000b2
0000004f
ffffffe3
ffffffef
00000094
0000006c
0000008d
00000032
ffffffe8
00000072
ffffff89
ffffff12
00000032
00000049
00000012
0000004e
00000080
0000006d
00000162
00000032
000000c4
ffffffc9
ffffff8e
00000019
fffffffa
00000018
0000003d
ffffff66
ffffffb4
ffffff30
00000083
00000014
00000058
000000b8
00000020
00000041
0000015f
00000037
0000006c
ffffffc7
000000b8
00000080
fffffff5
fffffed4
ffffffbf
00000085
000000b3
ffffff87
0000007f
fffffe5d
fffffec7
00000038
0000018c
fffffea1
00000040
fffffdf5
00000083
000000d5
00000054
fffffecc
00000048
ffffffb6
000000e4
ffffff39
ffffff36
ffffffea
00000002
00000144
0000002e
0000002e
000001d6
0000005b
0000028c
fffffed0
ffffff7b
0000002f
fffffff8
0000006a
00000014
ffffff52
000000f2
0000003e
ffffff04
fffffffa
000000df
00000146
0000013c
000000ae
ffffff31
ffffff54
0000009b
00000085
00000086
ffffff93
fffffe9e
ffffff78
ffffffef
00000039
ffffff44
000000f4
000000ec
0000006a
000000d4
00000048
ffffff54
ffffff6d
0000002f
000000ca
00000086
ffffff86
fffffe83
ffffff87
0000000a
0000011e
fffffefa
00000029
ffffffbf
fffffe71
ffffff13
fffffdce
ffffffa3
ffffff00
0000005d
ffffff82
ffffff27
000000b1
0000008f
00000035
fffffed5
fffffe3b
ffffff4d
fffffd75
00000059
fffffff3
ffffff47
0000000b
ffffff1e
0000009d
ffffffa3
fffffea9
000000dc
ffffffd5
000000d2
fffffff3
000000d2
00000095
ffffffc1
ffffff12
00000038
000000a7
0000006b
fffffeb2
00000051
00000093
ffffffb4
000000fd
0000013a
ffffff3e
0000006f
ffffff79
00000062
fffffffe
ffffffd7
ffffffe6
00000016
ffffffd6
ffffff93
fffffff2
ffffffe2
ffffffd7
000000b5
00000025
00000024
ffffff7e
00000022
fffffff9
0000007f
fffffff8
000000a9
ffffffe8
00000087
0000003c
00000077
ffffffff
ffffffbb
00000042
ffffffd2
fffffff5
0000004f
0000009e
00000025
ffffffdc
00000037
ffffffd9
0000003f
00000075
000000b8
00000007
000000d7
00000068
00000048
000000c0
00000158
00000038
00000101
0000004d
0000018d
000000bf
0000006b
000000ab
ffffff0d
ffffffad
fffffff3
fffffff3
00000058
0000001e
0000006d
00000005
fffffff4
ffffff8d
ffffffe1
0000000d
0000007f
ffffff93
000000bd
0000000c
00000038
0000002e
00000000
000000ad
fffffff6
0000008f
00000050
00000099
00000051
000000bd
00000060
00000074
0000009d
0000008f
00000078
ffffff69
000000ce
00000102
000000bb
000000e4
000000f3
0000007c
0000009b
000000e2
00000064
0000001e
000000dd
000000ae
00000044
000000a4
00000057
000000c3
00000075
000000d6
000000aa
000001a7
000000ed
0000004c
000000c6
0000002e
00000093
00000125
00000049
000000ca
0000009a
ffffff4c
000000b4
0000012d
00000076
000000ec
000000f7
0000002a
00000054
0000007b
fffffef2
0000004e
00000000
ffffffce
0000003f
ffffff5e
ffffffa5
00000046
00000003
ffffffcd
000000db
00000173
000000ac
000000cb
000000d6
000000ad
00000063
0000003d
ffffff6d
000000a2
ffffff5e
ffffffd2
00000030
00000082
ffffffca
00000019
ffffffcc
0000006e
ffffffb9
00000041
000000d4
fffffffe
0000011e
00000116
000000b5
00000161
ffffffb1
fffffee8
000000e9
0000005a
fffffefe
ffffff31
000000fc
ffffffaf
fffffe8e
ffffff5c
00000002
00000069
ffffffff
fffffe16
00000129
00000124
00000246
fffffee3
fffffe03
00000005
00000117
000000ce
ffffff43
000000e1
ffffff57
00000072
0000015f
00000070
00000043
0000001d
fffffdd8
0000016e
fffffef3
ffffffb0
0000010d
0000000e
00000088
ffffff0d
00000030
00000078
00000086
ffffff22
00000031
00000145
ffffffe9
ffffff6b
ffffff13
fffffee9
000000b1
00000116
000000c4
00000028
ffffff74
00000128
ffffff31
0000015c
00000052
00000045
ffffff45
00000039
00000073
000001e2
fffffeb4
fffffeaf
ffffff90
fffffec2
ffffff93
0000013f
00000061
0000011a
fffffef8
ffffff71
0000008b
0000001f
ffffff85
ffffff6c
ffffff27
00000008
ffffff8a
ffffff46
0000006f
0000006c
fffffedc
fffffec8
0000003d
fffffe7f
00000063
ffffffa2
ffffffe0
00000025
ffffffd4
ffffffaa
fffffebe
fffffff6
0000000f
fffffe48
00000038
00000116
00000012
0000004e
ffffffd4
00000026
0000009a
ffffffe6
00000080
ffffffac
00000051
000000d4
00000109
0000014c
00000109
000000c8
000000a7
000000b9
000000f2
00000180
000000fb
ffffffd1
00000026
fffffff6
0000007f
ffffffca
ffffffff
00000099
00000033
0000004b
00000065
00000093
00000011
0000009b
00000064
000000a3
0000003e
00000061
00000091
000000c7
00000111
00000096
00000049
000000cc
00000146
00000077
000000aa
00000011
0000004b
00000090
000000c5
00000019
ffffffc3
00000009
0000009b
ffffff40
0000008f
00000063
000000e5
00000042
000000b7
00000065
0000002a
0000006c
00000129
00000072
0000002e
ffffff89
00000046
ffffffe6
00000077
ffffffd1
ffffff5d
00000045
00000083
ffffffd9
0000002b
0000006a
00000019
0000014f
00000136
000000fa
000000fc
000000ce
00000108
00000085
000000d2
000000a5
00000046
00000034
00000064
0000006f
00000027
00000027
000000d9
0000004e
ffffffec
ffffffbe
000000a6
0000008b
00000191
0000012a
000000ea
00000107
0000012a
00000105
000000dd
0000009b
00000031
000000f2
0000005d
0000002f
00000081
0000007c
00000098
ffffffee
00000062
fffffff5
0000004f
000000a6
00000123
000000d4
00000058
00000056
000000e2
fffffffc
00000048
0000000c
ffffffd4
ffffff53
00000002
000000ee
ffffff9c
000000ad
00000034
ffffffb9
0000008f
00000003
0000005f
000001ce
000000bc
fffffff8
00000076
ffffffdb
00000099
00000116
000000c3
0000006d
fffffff7
ffffff92
ffffffea
00000059
ffffff76
000000ae
fffffff2
0000000e
00000020
fffffff4
000000c2
00000050
000000a6
0000008b
ffffff9d
0000002b
00000045
ffffff43
000000b2
ffffff7e
0000012e
ffffffb6
000000a7
fffffff7
ffffffbd
00000032
000000d3
ffffff36
00000067
fffffeeb
00000033
ffffffe9
00000034
00000061
ffffffc1
0000003c
000000ac
fffffe9d
00000040
ffffff8a
ffffffe2
00000077
ffffffa5
fffffe7c
fffffedd
00000112
ffffffd1
00000000
fffffefa
ffffff03
ffffff7b
000001ab
00000122
ffffffdd
ffffff7c
0000009a
ffffff61
ffffff9a
ffffffab
ffffff55
ffffff06
00000016
00000100
fffffee1
000000e3
ffffff66
0000003c
000000b3
00000112
fffffeb9
00000163
fffffff4
ffffffb0
ffffffc4
000000c4
ffffff21
ffffff5f
fffffec8
000000ba
fffffff8
00000151
00000001
00000140
000000a5
000000ea
fffffeb7
fffffece
ffffff10
0000004c
ffffffed
00000089
ffffffa9
ffffff38
000000a9
ffffff8d
00000018
00000049
ffffffc1
00000146
0000006d
fffffebe
ffffffaa
000000ef
fffffe15
ffffff1c
ffffff83
00000025
ffffff6f
ffffff24
ffffff7f
fffffeef
000000e0
ffffffbe
ffffffc1
0000011e
0000005b
fffffea8
ffffffe9
ffffff93
ffffffee
00000037
00000120
000000ef
0000010e
0000002e
00000022
0000002f
0000003d
0000004d
00000096
00000106
fffffe1d
00000053
ffffffef
0000006a
00000046
0000008a
fffffec4
ffffffe6
ffffff4a
ffffff90
ffffffe5
00000054
0000004b
fffffeed
ffffffc7
ffffffaf
ffffff02
ffffffa5
00000036
00000028
ffffffa7
00000048
000000bd
ffffffd3
00000060
000000e4
ffffff2e
000000c0
ffffff3e
00000066
00000107
000000d8
0000003d
ffffff1a
000000ba
ffffff62
ffffffe4
000000be
ffffffd1
00000083
00000083
0000006c
000000cf
ffffffac
00000074
00000139
00000062
0000004f
ffffffe1
0000004a
ffffffdd
0000003c
ffffffe3
ffffff7b
00000024
000000a4
ffffffc2
fffffff0
ffffff5a
00000118
00000120
0000012a
0000007a
000000d6
000000ad
00000140
ffffffb3
0000006c
fffffff4
0000012a
00000093
000000d2
ffffffff
fffffffa
0000007d
000000a5
0000006a
00000081
fffffff2
000000d1
00000060
00000012
fffffffc
ffffffba
0000000d
00000028
0000000d
ffffffd6
00000009
00000023
000000db
000000ba
00000111
000000fe
00000103
00000189
000000b2
000000de
000000c0
00000073
00000097
000000aa
00000009
000000ba
00000083
0000011e
0000006b
0000007c
00000051
00000079
000000f6
00000084
000000e0
000000f4
00000079
00000010
00000037
0000004a
000000dc
000000a8
000000a9
00000089
00000046
0000005c
000000e0
0000009b
ffffffab
00000072
ffffffe0
00000063
0000009f
00000030
00000095
000000bd
0000004f
000000ab
ffffff15
ffffffe3
00000078
0000007a
0000007a
00000048
00000040
ffffffcf
00000043
ffffff98
ffffff58
ffffff97
00000031
00000053
ffffffc4
000000ba
0000004a
ffffffd5
00000072
00000113
ffffff2f
000000c3
ffffffe1
ffffff23
00000081
00000039
00000001
00000126
ffffffc5
ffffffc3
00000042
ffffffd4
ffffffb0
00000025
0000006a
0000000b
fffffff4
fffffe68
000000e0
0000000c
fffffe49
0000004d
00000013
ffffff2e
fffffe71
0000002f
00000071
fffffe27
ffffff74
fffffec4
ffffffc7
00000009
00000017
00000039
000001b0
0000006a
ffffff49
0000006f
fffffe61
ffffff96
0000001b
0000003b
ffffff7b
fffffff5
00000123
00000172
fffffff5
00000003
00000037
fffffff4
0000004a
fffffecd
ffffffc8
ffffff7d
ffffffb9
ffffffc9
00000122
fffffff4
ffffff00
fffffe5a
0000002d
ffffff2c
00000102
000000d0
ffffffb2
00000049
ffffffc7
000000be
00000073
00000143
fffffeae
00000132
00000066
000000d5
0000008e
fffffef2
ffffffc7
00000148
0000006d
000000a8
00000161
ffffffa1
00000128
ffffff42
00000164
ffffffa4
0000012a
000000fb
fffffef8
00000048
000000ea
000000e3
0000000f
00000096
000000f2
00000100
0000005c
00000140
000000a6
ffffffad
fffffeb7
ffffffe4
fffffe4a
000000cc
fffffff2
000000f4
00000138
000000d8
ffffff37
ffffff09
fffffedb
ffffff8a
00000036
ffffff83
ffffff2d
ffffff9d
000000ed
fffffdef
000000fb
00000018
00000038
ffffffc0
000000f7
00000045
000001a8
00000073
00000059
ffffff0a
000000d2
00000031
fffffed0
fffffff6
00000045
0000000f
000000bb
0000000a
ffffffda
ffffff31
00000062
fffffefb
ffffff9f
00000018
ffffffe4
0000005b
0000011c
000000e9
000000a9
ffffff8a
00000068
00000052
ffffff68
000000af
ffffffff
0000007a
00000085
0000001e
000000b5
0000018e
00000107
00000133
000000da
00000042
000000e9
00000030
0000003a
000000e2
00000031
0000010f
00000076
0000009f
fffffffd
000000c9
0000001a
000000f5
000000f5
000000fe
000000a8
00000026
0000008d
0000003e
000000aa
0000007a
0000007a
ffffffbb
ffffffce
ffffffe4
ffffffaf
ffffffdc
00000051
00000061
00000044
fffffffd
fffffff2
000000fd
000000ab
000000af
000000e8
0000009d
00000081
0000017a
00000063
00000069
00000050
000000fc
00000054
00000131
00000087
00000058
0000011a
00000174
000000eb
0000011a
0000004b
00000036
000000ba
00000090
000000c3
00000079
00000071
0000011a
00000048
00000074
0000003c
ffffffcf
00000042
00000018
0000002e
ffffffe8
000000b5
0000005e
ffffffd0
00000042
ffffff89
00000014
000000bb
00000089
0000006c
ffffffb8
00000022
00000072
00000038
00000013
ffffffab
ffffff74
ffffffdf
00000078
00000059
000000b7
0000007d
000000e6
00000024
00000060
00000057
000000c3
000001fd
00000158
000000ce
fffffffe
0000008e
000000d7
000000a9
000000bf
ffffff69
ffffff9d
00000041
000000ff
00000143
00000077
000000ac
000000d3
00000029
000000fb
000000cb
00000052
00000146
000000be
000000bc
000000d8
00000063
000000d4
00000026
000000b2
00000071
00000045
000001b1
000000f6
fffffff1
ffffff1a
0000007c
ffffffad
ffffffae
0000008e
000000c5
ffffffdd
ffffff1f
00000088
0000008d
00000166
00000133
00000160
0000002b
0000002b
fffffe89
ffffff2e
ffffff95
00000145
00000059
000000a5
00000124
00000011
fffffdea
0000000b
fffffee2
ffffffb9
00000126
0000001e
fffffdf8
ffffff09
0000014f
ffffff34
ffffff8b
ffffffe8
00000146
0000000c
000000d8
000000a1
fffffe86
ffffff71
ffffff0d
0000015a
ffffff21
ffffff39
0000008c
00000116
ffffff0b
ffffff75
ffffff69
ffffff25
ffffffc4
ffffff86
00000037
fffffe4f
000000ce
fffffefe
fffffff7
00000137
0000010f
ffffffad
0000005a
0000003b
ffffff83
fffffff6
fffffea1
fffffee6
ffffff00
00000131
ffffffd8
fffffef1
00000146
ffffffc6
00000160
00000082
fffffed2
ffffffc6
ffffff7d
ffffff9e
00000109
ffffff4c
0000004c
ffffffa6
ffffff11
ffffff81
ffffff58
0000001d
00000049
0000008c
00000154
fffffffa
00000053
fffffea4
ffffffbf
fffffec5
ffffff53
ffffff4a
ffffff38
0000009d
00000128
0000005f
00000195
00000018
fffffe39
000000c9
0000000f
00000019
0000012b
0000010a
0000003a
ffffff42
000000eb
fffffeb1
fffffe65
000000db
ffffffb6
00000015
00000139
00000018
ffffff6a
ffffff79
fffffea4
ffffff63
0000003e
0000003a
ffffff28
00000061
00000113
000000a2
000000e9
000000b8
fffffff5
fffffe27
ffffff93
00000031
ffffff7f
ffffffee
00000021
0000008d
00000038
ffffff23
00000062
000000db
000000fb
00000066
0000005a
000000bd
0000011d
000000eb
0000008e
00000001
00000078
00000085
00000039
00000090
00000029
0000013b
00000195
000001f1
00000117
00000010
000000de
00000154
00000154
00000119
00000143
00000046
ffffffd8
ffffffbb
ffffffd5
fffffffa
0000004c
000000dc
00000019
0000000e
000000a9
000000a1
0000003e
0000012f
0000010f
0000009e
00000084
000000ce
ffffffe5
000000aa
0000004e
000000e9
0000005f
00000057
00000028
ffffffc6
000000ef
0000006c
00000044
000000b1
00000097
0000015f
ffffffc5
0000008a
000000a9
00000091
00000088
0000015c
ffffffdd
00000082
0000007f
00000079
00000156
00000104
0000005c
00000024
00000140
fffffff9
00000109
000000fe
000000b5
000000c9
00000007
ffffff90
00000004
ffffffc1
ffffffeb
000000e7
ffffff91
00000000
fffffff3
00000064
ffffffff
00000082
0000000e
00000071
000000a0
00000065
00000089
00000038
0000005f
0000004b
000000c0
fffffff4
000000ee
00000024
0000005f
ffffffe8
00000003
00000062
00000025
00000062
000000d5
000000cc
ffffffeb
ffffffd9
00000093
000000d4
ffffffb2
0000002d
00000066
000000c3
00000100
0000001f
00000025
000000f9
000000c5
00000097
00000017
00000029
ffffff50
00000024
000000f0
000000e6
000000ad
fffffed0
000000d5
00000031
ffffffa5
00000061
fffffffe
000000de
000000b4
ffffff8f
ffffff96
00000178
00000013
000000b0
000000ae
0000003a
000000af
000000d7
fffffe4c
0000012c
00000024
0000004f
ffffff76
ffffffc0
fffffef1
00000052
ffffffd2
fffffe58
ffffff0d
ffffff3d
ffffffab
ffffffef
000000bc
ffffff0a
fffffe9a
ffffff89
0000000b
00000028
000001fa
00000027
fffffe24
0000007e
ffffffa4
fffffd6d
fffffff4
fffffed1
000001d2
00000076
ffffff64
00000190
fffffe21
ffffff47
ffffff0c
000000b7
ffffffd0
fffffff1
0000006b
ffffff9d
00000110
fffffebd
000000ef
0000000f
00000147
fffffed1
ffffffc6
fffffe7f
fffffe61
00000085
fffffea1
0000007b
ffffffba
00000034
0000001c
fffffed8
00000044
00000074
fffffec2
fffffed8
ffffff36
00000074
ffffff8f
fffffeda
00000068
000000b3
00000127
00000062
fffffedf
0000010d
000000aa
0000003c
000000d7
fffffefe
fffffed0
ffffff9a
00000041
0000009a
000000fa
0000003a
ffffff8d
0000006a
000001ba
000000b8
0000012b
ffffff23
fffffe35
fffffea8
00000013
fffffef6
0000005f
ffffff5f
00000079
fffffeee
ffffff2c
0000015e
ffffff81
0000012a
ffffff78
ffffff0f
fffffde9
00000075
00000158
fffffea8
000000b7
ffffff92
000000e7
fffffeee
ffffff50
00000064
00000086
ffffff75
0000001d
fffffee5
ffffffee
000000fb
0000004c
ffffff0a
ffffffb3
ffffffca
ffffff72
000000b6
000000eb
0000007b
00000150
fffffff9
000000a3
00000055
000000a7
000000c3
00000147
000000ea
000000a9
00000046
ffffffdc
fffffedc
00000101
fffffffd
00000036
0000003d
ffffffa5
ffffffc8
00000065
000000ee
00000128
000000ce
ffffff96
0000007a
000000b4
000000c3
00000084
000000d6
00000091
0000009c
00000037
ffffffab
00000061
0000008f
0000003c
00000111
000000d3
00000122
00000136
0000007c
00000179
0000007b
00000025
000000e9
00000080
0000016e
00000034
00000032
000000a7
0000007b
0000009b
0000002f
000000e9
000000ad
000000ea
000000c5
000000dd
00000150
00000064
000000d2
0000011c
00000141
0000009b
000000d1
00000069
000000cc
0000013a
000000d3
0000013b
0000008f
000000d7
0000010c
000000f0
00000164
00000114
0000013c
00000032
00000065
000000a1
00000112
0000011b
000000cf
fffffff4
000000ae
000000b2
000000be
000000d1
000000f8
000000ac
00000054
00000085
000000cc
000000b2
000000c6
0000005c
000000ca
00000141
00000058
00000029
0000005c
000000f4
0000000e
00000040
000000c8
00000021
00000031
00000110
00000069
00000077
00000074
0000004c
00000012
00000019
00000043
ffffffe8
00000051
ffffff6d
00000077
000000a0
000000b2
ffffffd9
000000da
0000002d
0000007b
0000003e
fffffea7
0000003d
000000df
0000005b
ffffffed
ffffff9f
ffffffd0
ffffff8e
0000002a
000000a5
ffffff82
ffffffb2
0000014e
000000aa
00000143
00000155
0000017f
0000005b
00000083
000000b1
00000093
00000021
00000138
000000c3
000000a5
000000cd
00000021
fffffef2
000000f6
000000cf
00000005
ffffff0d
0000013a
ffffff78
fffffef6
ffffffc6
00000038
fffffe76
ffffffa8
0000016a
ffffff9e
0000002a
000000ba
ffffff2b
ffffffa5
00000071
ffffff7f
ffffff3c
00000074
000000c0
fffffe68
000000b3
0000013a
fffffe7e
00000074
ffffffda
0000004c
fffffeb6
0000001a
0000007a
ffffff26
0000001e
0000009c
ffffffbd
fffffefc
000000f9
ffffffeb
0000004c
ffffffb8
ffffffae
fffffffe
00000151
ffffffa6
ffffff5c
ffffff4d
fffffff7
ffffff53
fffffeba
00000076
fffffe77
ffffff2c
00000049
0000012a
000000c2
fffffea3
fffffea0
ffffffc9
ffffffe7
000000a5
0000012e
0000007f
ffffff92
0000009b
000000f2
ffffff78
00000063
00000130
ffffff4f
ffffffc6
00000128
00000027
0000004f
ffffff70
fffffff5
fffffefb
ffffff24
ffffffde
00000162
000000b7
00000020
ffffff2b
ffffff8b
ffffff81
00000034
00000104
ffffffb4
00000108
000000f1
000000e9
fffffe5b
fffffeb0
ffffff08
ffffff3a
000001c3
fffffef7
00000086
ffffff86
fffffff2
fffffea9
fffffd91
ffffff74
fffffec5
fffffe5e
00000149
fffffea2
00000154
00000133
ffffffeb
ffffffa5
000000aa
fffffef1
ffffff0d
ffffff91
ffffff93
00000025
ffffffbf
fffffead
000000a4
ffffff37
00000004
ffffffb4
00000097
ffffffc1
ffffffd6
000000dc
fffffff5
fffffe90
ffffffc7
ffffffab
ffffff95
ffffffd1
ffffffcc
ffffff48
000000c9
0000003d
00000037
fffffece
000000aa
00000016
0000007f
ffffffbb
ffffff93
00000078
ffffffe1
ffffff1a
ffffff68
ffffffb7
fffffff4
ffffffdb
ffffffbc
0000008c
000000f2
0000007b
0000003f
000000b5
00000068
ffffff1a
00000007
00000065
00000019
00000076
fffffffe
fffffffe
000000c3
0000000f
000000b2
fffffcb8
0000003d
00000053
00000086
ffffff26
0000001e
00000072
00000053
000000ac
00000052
ffffff2a
ffffff8f
00000059
fffffff8
00000186
0000005e
00000093
0000004b
ffffffdc
00000064
fffffeca
00000005
000000bb
00000057
00000040
0000000d
0000002c
000000a1
00000089
00000110
fffffe7f
00000082
0000006c
0000000f
000000b3
ffffffbf
000000cc
00000014
ffffffc9
fffffff5
ffffff95
00000001
00000055
ffffff76
ffffff4b
00000098
0000003d
fffffff6
ffffffe2
0000007e
ffffff3e
ffffffb1
00000021
00000038
00000022
ffffff6a
00000004
000000d5
000000a5
0000004b
00000069
0000000e
000000c8
00000065
000000c3
000000a0
0000013b
00000034
ffffffec
00000097
ffffffa0
000000c6
ffffffea
00000086
0000002d
000000a2
00000080
00000010
0000005b
00000120
ffffff84
fffffeef
000000e0
00000045
ffffff90
ffffffc5
ffffffa6
ffffff0d
00000015
ffffff51
ffffffbc
ffffff5e
0000008b
ffffffba
fffffec6
000000d4
00000065
ffffff56
ffffff7a
0000001b
ffffff35
ffffff5d
ffffffc2
ffffffd4
fffffe93
00000046
00000082
ffffffc8
00000023
ffffff3e
fffffe33
ffffff26
ffffffbb
ffffff97
ffffffc5
0000003e
ffffffd8
0000009e
00000089
000000aa
ffffff42
ffffffd5
00000012
000000e8
ffffff30
00000032
0000014e
0000009b
000000bf
00000018
ffffff25
fffffee9
ffffff67
ffffffc4
ffffff6b
000000db
000001ed
fffffe94
fffffeb7
00000117
fffffe98
ffffff78
0000009e
000000b3
0000015d
000000d2
0000011e
fffffed8
0000015b
fffffe22
fffffef0
fffffefa
fffffe21
fffffeb2
ffffffa1
00000113
00000090
0000003f
00000060
0000005d
ffffffd6
ffffff92
ffffff83
ffffff91
ffffff19
ffffffe0
fffffee3
ffffff89
ffffff36
000000c6
fffffef8
0000014a
000000f6
ffffff5e
ffffffd0
000000d2
ffffffa5
000000ce
fffffed3
00000063
00000115
0000012b
fffffeb1
fffffff2
0000015c
fffffedc
000000ab
00000029
000000b0
ffffffbe
ffffffb9
0000012c
00000053
ffffff4a
000000a4
fffffef9
0000008e
000000ba
00000011
ffffff0e
000000d7
00000083
000000ad
0000001f
000000e9
00000039
000000f6
00000065
ffffff97
00000195
ffffffe1
000001e2
ffffff79
ffffff2a
ffffff34
fffffe72
fffffe90
fffffee0
0000004b
0000001d
000000d8
ffffffd8
00000042
0000004c
0000000a
00000034
00000015
ffffff73
ffffffb7
ffffffa2
0000014a
0000008c
ffffff19
0000011e
ffffffa3
ffffff04
ffffffd1
0000003b
ffffff62
00000098
fffffebe
ffffff32
ffffff40
ffffff88
ffffff9b
fffffde8
fffffe3f
000000f0
00000004
0000005e
fffffef9
000000b2
000000a2
000000a4
fffffe9a
00000124
fffffec8
00000226
0000003d
00000106
ffffff88
000000df
00000083
00000166
ffffff7a
fffffeb6
fffffd09
000000b6
ffffff51
00000038
ffffffbd
000000a8
ffffff8f
ffffffea
fffffe8f
ffffff8d
ffffffc3
00000117
000000d2
000000f8
00000044
000000dc
0000010d
000000ef
ffffff2b
ffffff46
ffffffc3
0000005b
0000005e
0000008a
00000032
000000e1
00000086
0000008c
ffffff4e
fffffebc
ffffff4c
000000df
ffffff54
00000060
00000148
00000060
ffffffa4
00000012
fffffd23
ffffffc3
ffffff26
ffffffa0
ffffffbc
ffffffc4
fffffdfe
ffffff93
ffffffbe
ffffffe5
fffffe0e
fffffecb
000000ec
000000b9
fffffffd
ffffffc1
ffffffbf
00000033
ffffffa8
00000048
fffffe4a
ffffff7f
00000014
ffffff55
0000001e
000000e7
fffffeeb
ffffffdd
0000004e
ffffffa4
fffffee2
fffffdfc
000000ca
000000b5
ffffff80
00000026
ffffffa3
00000076
0000007b
00000060
fffffcf9
ffffff42
ffffff58
0000000b
00000029
0000008e
ffffff28
ffffff9d
0000001b
00000024
fffffd0e
fffffef9
ffffffeb
000000e3
ffffff63
000000bc
fffffebb
0000010b
ffffffa6
00000025
ffffff33
fffffd80
ffffffef
000000be
ffffff88
ffffff85
000000f3
ffffffaa
0000008e
fffffff8
00000072
0000008c
fffffed2
ffffffea
ffffffb3
000000a8
ffffffa2
00000088
00000061
0000018f
fffffde4
ffffff6a
00000056
00000051
ffffff5e
000000c9
00000026
000000ca
ffffffb2
ffffff75
fffffe46
ffffffda
fffffdac
fffffe96
ffffffbb
000000f6
ffffffce
00000057
0000001d
00000103
0000006a
00000128
fffffdb2
ffffffed
0000009d
ffffff8f
ffffffb3
fffffeb6
ffffff26
ffffff79
ffffffdc
00000039
ffffff55
ffffff9a
fffffee2
00000269
000000d5
fffffed2
00000026
ffffff3f
ffffff1d
ffffff54
ffffffb8
0000008c
fffffeed
00000051
000000ad
00000057
fffffe95
ffffffc7
ffffff7d
ffffff2b
ffffff4b
00000156
ffffffea
0000000d
ffffff3e
ffffffc4
0000006d
ffffffd5
fffffeeb
ffffffb4
0000014a
ffffff99
00000125
fffffefc
000000ac
0000000a
00000047
000000cc
000000f3
00000093
0000001b
0000010b
ffffffc7
0000001b
00000102
ffffffb2
0000003f
000000c0
00000026
00000037
fffffec0
ffffff04
000000d4
00000154
00000000
000000ac
ffffff0e
0000013f
ffffff45
fffffecd
ffffffdf
000000bf
ffffffe7
ffffff3b
00000071
ffffff16
0000005b
ffffffe7
ffffff86
ffffff01
0000000c
0000010e
fffffed0
fffffed9
00000015
000000ee
0000011c
00000000
000000b1
00000092
ffffff4b
ffffffba
0000001d
ffffffe7
ffffff51
fffffe8c
fffffeb5
00000168
fffffe60
fffffed9
ffffff4f
00000063
00000090
00000039
ffffff44
ffffffc2
ffffffff
00000104
ffffff96
ffffff15
00000086
0000015c
fffffeed
ffffff52
fffffe9e
000000ef
ffffff17
000000f7
ffffff2a
0000011a
fffffea1
0000000a
fffffe95
fffffe09
ffffff30
00000042
0000004b
000000eb
ffffff7f
ffffffe5
0000002c
fffffff4
ffffff09
fffffee4
fffffe9c
000000e3
000000e2
000000b2
ffffff41
fffffef5
ffffffd3
fffffeb2
ffffff08
fffffed4
0000004d
0000009e
fffffe6c
00000110
ffffff77
ffffffea
ffffff6a
0000013d
ffffff01
000000b6
fffffee9
00000082
000000be
0000009f
fffffefb
ffffff46
ffffff30
ffffffcd
fffffe8b
ffffffd4
00000066
ffffffeb
fffffee2
0000000f
fffffe71
fffffdca
00000020
ffffff97
fffffeda
00000018
00000097
ffffffb4
ffffffd1
000000a6
ffffffc6
fffffe7c
ffffff0c
ffffffaf
ffffff0c
000000b8
ffffffc7
fffffff0
00000020
ffffffd3
ffffff41
fffffe36
fffffe32
000000db
fffffe7b
00000066
00000036
00000000
fffffdc8
000000ba
ffffff02
ffffff73
ffffff0f
fffffec6
fffffd75
ffffffc8
fffffebe
ffffffea
ffffff3b
ffffff91
fffffe93
ffffffa7
fffffe3d
00000098
ffffff57
ffffff56
ffffffe1
ffffffd0
fffffecd
0000001e
fffffe59
fffffecd
fffffdde
ffffff4f
fffffdb2
0000007d
00000046
0000002b
fffffefe
00000039
00000028
ffffff0d
ffffff70
ffffff2b
ffffff42
fffffea5
ffffffec
00000053
fffffeeb
0000006c
00000077
ffffff0b
ffffffd0
00000099
ffffff0c
00000081
00000025
00000161
fffffea2
00000011
fffffe52
000000f8
ffffff9b
000000da
ffffff48
0000010f
00000001
ffffffec
fffffe85
00000071
fffffe67
fffffefc
000000b2
0000009c
ffffff64
ffffffa5
0000012d
000000bb
000000d4
00000101
ffffff27
ffffff87
fffffec2
00000066
fffffefb
ffffff73
00000145
ffffff68
ffffff02
ffffff9b
ffffffe1
000000a0
fffffffb
000000cd
ffffffe4
00000197
00000075
00000137
000000ce
0000001b
ffffff84
fffffeb8
ffffff75
ffffffae
000000d3
00000016
000000da
ffffffa1
00000079
ffffff9a
ffffff1d
fffffea6
ffffffff
ffffffdd
fffffed1
0000006f
0000008c
00000016
00000018
fffffe9f
0000002b
ffffff2a
fffffee0
ffffffe8
fffffef2
000000a2
000000c7
00000060
00000156
ffffff72
ffffff3f
00000131
ffffff96
fffffedc
fffffeb6
ffffffe4
ffffff1e
ffffff69
00000040
ffffff96
ffffffbc
ffffffb0
fffffe9d
00000007
0000001e
000000d6
ffffff87
ffffffe2
fffffffe
000000f0
ffffff85
00000123
ffffff07
0000000d
ffffff94
ffffff6e
fffffeb8
0000002c
ffffff33
ffffff96
fffffed7
ffffff50
00000068
0000009b
fffffed3
fffffebc
ffffffb4
ffffff78
ffffff18
00000086
ffffff2c
0000012f
ffffffe9
fffffebe
fffffea3
00000070
00000133
fffffff9
0000000e
fffffec3
ffffffbc
ffffff3a
000000e9
000000ec
fffffeaf
ffffffac
00000018
0000003f
00000063
ffffffd5
ffffff75
ffffff48
000000ad
00000041
00000062
ffffff4d
ffffffbb
0000018d
ffffffdc
00000027
000000e1
ffffffe6
ffffffa7
ffffffa5
ffffff50
ffffffcb
00000145
fffffe96
ffffffd4
000000f4
00000068
0000003c
ffffff98
000000a2
fffffed6
fffffed7
000000be
ffffff76
fffffef7
ffffff0a
ffffff7b
00000110
ffffff26
ffffffde
ffffffe6
ffffff29
fffffed5
000000a5
fffffe9c
ffffffab
ffffff9a
000000a6
00000070
fffffee9
fffffe6c
fffffec2
000000c4
ffffff2c
0000007b
00000045
0000005a
000000ce
ffffffaf
fffffed9
fffffeb0
ffffff5b
ffffff2e
0000012b
00000058
ffffff95
ffffff53
00000089
ffffff38
000000a2
000000a0
ffffffd3
000000e9
ffffffd8
000000b7
fffffffa
ffffffdd
000000ff
00000075
000000f9
fffffff8
fffffff4
00000004
00000021
fffffea9
ffffff82
ffffff9d
00000083
00000065
0000008b
0000007c
ffffffc0
fffffe97
00000198
fffffece
0000003c
0000004e
0000007f
fffffefb
ffffffcd
00000014
0000000c
00000121
00000160
00000010
000000d3
000000df
00000122
ffffff54
ffffff1e
ffffffcd
fffffeea
ffffff36
ffffff75
ffffffb0
0000004e
ffffffc9
0000006a
00000108
00000091
fffffebe
00000150
fffffee0
000000c8
ffffff30
ffffffb8
ffffff88
00000011
0000009c
ffffff90
ffffffdc
ffffffa4
fffffee9
00000027
00000011
0000003f
ffffff0c
000000d6
ffffff1c
ffffffda
000000bc
ffffff4c
ffffff7f
0000008c
ffffff37
ffffff23
ffffffa3
ffffff7e
ffffffd6
ffffff9d
fffffe9e
fffffef7
ffffffca
000000f3
00000055
00000028
00000066
fffffea3
ffffff60
fffffed1
000000c6
0000008c
0000014d
ffffffc4
ffffff8f
000000e2
ffffff7d
00000132
000000eb
ffffffc4
fffffe6b
00000011
ffffffd6
00000103
0000000d
ffffffb0
ffffff19
fffffeae
fffffeec
ffffff37
00000019
ffffffe0
ffffff6b
0000018b
fffffed3
ffffffa6
ffffff00
fffffebe
ffffff1f
00000013
0000011a
00000035
ffffff23
000001c2
00000075
ffffff37
ffffffaa
0000008e
ffffffb2
ffffff9b
ffffffa0
00000141
0000010b
ffffff3d
00000081
ffffffae
0000004f
ffffff28
000000cd
ffffff14
fffffee8
000000a8
00000112
ffffff24
0000008e
fffffec4
fffffea3
00000090
000000c5
00000072
fffffed2
ffffff46
fffffeed
000000c6
00000099
00000110
ffffff1a
ffffff09
ffffff75
00000014
00000119
0000014b
0000002f
0000001b
00000131
00000045
fffffc4c
000002e9
000002e1
fffffe4c
0000017c
000008c6
fffffeb0
0000044b
fffffa57
fffffec2
